{"<unk>": 0, "<pad>": 1, "\"": 2, "%": 3, "&": 4, "'": 5, "(": 6, ")": 7, "*": 8, "+": 9, ",": 10, "-": 11, ".": 12, "/": 13, "0": 14, "1": 15, "2": 16, "3": 17, "4": 18, "5": 19, "6": 20, "7": 21, "8": 22, "9": 23, ":": 24, ";": 25, "<": 26, "</w>": 27, "=": 28, ">": 29, "?": 30, "A": 31, "Among": 32, "B": 33, "C": 34, "D": 35, "E": 36, "F": 37, "G": 38, "H": 39, "How": 40, "I": 41, "In": 42, "Is": 43, "J": 44, "K": 45, "L": 46, "M": 47, "N": 48, "NA": 49, "O": 50, "P": 51, "Q": 52, "R": 53, "S": 54, "T": 55, "U": 56, "V": 57, "W": 58, "What": 59, "Which": 60, "X": 61, "Y": 62, "Z": 63, "[": 64, "]": 65, "a": 66, "ab": 67, "abe": 68, "aber": 69, "abes": 70, "abet": 71, "able": 72, "abled": 73, "ables": 74, "ablet": 75, "abr": 76, "aby": 77, "ac": 78, "aca": 79, "acaf": 80, "acaine": 81, "acal": 82, "acant": 83, "acanth": 84, "acap": 85, "acar": 86, "ace": 87, "aced": 88, "acellular": 89, "acem": 90, "acemak": 91, "acement": 92, "acent": 93, "acer": 94, "aces": 95, "acet": 96, "acetic": 97, "aceto": 98, "acetone": 99, "ach": 100, "achal": 101, "achalas": 102, "ache": 103, "ached": 104, "acher": 105, "aches": 106, "achy": 107, "achyp": 108, "acid": 109, "acidem": 110, "acidif": 111, "acidoph": 112, "acidosis": 113, "acidur": 114, "acin": 115, "acine": 116, "acing": 117, "aclin": 118, "aclit": 119, "acliz": 120, "aclofen": 121, "aclor": 122, "aco": 123, "acocc": 124, "acody": 125, "acolic": 126, "acolon": 127, "acondy": 128, "acort": 129, "acosis": 130, "acostomy": 131, "acotic": 132, "acoustic": 133, "acr": 134, "acro": 135, "acrocentr": 136, "acrochor": 137, "acrococcy": 138, "acroder": 139, "acrog": 140, "acrolein": 141, "acrolide": 142, "acrolimus": 143, "acrome": 144, "acron": 145, "acrop": 146, "acros": 147, "act": 148, "acter": 149, "actero": 150, "actic": 151, "actice": 152, "action": 153, "activ": 154, "active": 155, "actively": 156, "actor": 157, "acute": 158, "acutely": 159, "acy": 160, "ad": 161, "ade": 162, "adectomy": 163, "aded": 164, "ademase": 165, "aden": 166, "ader": 167, "ades": 168, "adest": 169, "adism": 170, "ado": 171, "adoles": 172, "adon": 173, "adop": 174, "adotrop": 175, "adotroph": 176, "adox": 177, "adr": 178, "adren": 179, "adrenal": 180, "adrenalectomy": 181, "adrener": 182, "ady": 183, "adyp": 184, "af": 185, "afe": 186, "afely": 187, "afen": 188, "afenone": 189, "afest": 190, "afet": 191, "affect": 192, "affected": 193, "affection": 194, "afir": 195, "after": 196, "ag": 197, "agan": 198, "age": 199, "aged": 200, "agedor": 201, "agement": 202, "agen": 203, "agener": 204, "agenes": 205, "agent": 206, "ager": 207, "ages": 208, "aget": 209, "agr": 210, "agre": 211, "ain": 212, "aine": 213, "ained": 214, "aines": 215, "ainf": 216, "ak": 217, "akin": 218, "aking": 219, "aknes": 220, "al": 221, "ala": 222, "alact": 223, "alacto": 224, "alactocele": 225, "alactocere": 226, "alactor": 227, "alactose": 228, "alactosem": 229, "alacy": 230, "alad": 231, "alade": 232, "alaf": 233, "alamin": 234, "alamine": 235, "alan": 236, "alance": 237, "alanced": 238, "alances": 239, "alant": 240, "alapr": 241, "alar": 242, "alase": 243, "alasse": 244, "alat": 245, "alate": 246, "ale": 247, "aled": 248, "alem": 249, "alen": 250, "alene": 251, "alenes": 252, "alent": 253, "alep": 254, "aleplon": 255, "aler": 256, "ales": 257, "ali": 258, "alia": 259, "alias": 260, "alic": 261, "alicy": 262, "alid": 263, "alidox": 264, "alifor": 265, "align": 266, "alim": 267, "alin": 268, "alindrome": 269, "aline": 270, "aling": 271, "alip": 272, "aliper": 273, "alir": 274, "aliroc": 275, "alis": 276, "alit": 277, "ality": 278, "aliv": 279, "aliz": 280, "alized": 281, "all": 282, "allanto": 283, "alle": 284, "alled": 285, "allel": 286, "allele": 287, "alleles": 288, "allelic": 289, "allen": 290, "aller": 291, "allet": 292, "alliative": 293, "allic": 294, "allidum": 295, "allidus": 296, "allik": 297, "alling": 298, "allismus": 299, "allo": 300, "allody": 301, "allogr": 302, "alloly": 303, "allop": 304, "alloprotein": 305, "allor": 306, "alloster": 307, "allot": 308, "allow": 309, "allowed": 310, "ally": 311, "alo": 312, "alob": 313, "alocortico": 314, "alof": 315, "alog": 316, "alol": 317, "aloma": 318, "alon": 319, "alone": 320, "alop": 321, "alopr": 322, "alor": 323, "alosis": 324, "alothane": 325, "alotic": 326, "alovirus": 327, "alox": 328, "als": 329, "alse": 330, "alsely": 331, "alsy": 332, "alu": 333, "alue": 334, "alues": 335, "alumab": 336, "alus": 337, "aly": 338, "am": 339, "ama": 340, "amadol": 341, "amag": 342, "amage": 343, "amaged": 344, "amages": 345, "amant": 346, "amar": 347, "amart": 348, "amartoma": 349, "amase": 350, "amases": 351, "amast": 352, "amat": 353, "amate": 354, "amates": 355, "amatic": 356, "ame": 357, "amed": 358, "amel": 359, "amen": 360, "amenor": 361, "ament": 362, "amer": 363, "ames": 364, "amesh": 365, "amet": 366, "ameter": 367, "ameth": 368, "amethas": 369, "ametocy": 370, "amin": 371, "aminal": 372, "amine": 373, "amined": 374, "aminer": 375, "amines": 376, "aming": 377, "amon": 378, "amost": 379, "amusing": 380, "amy": 381, "an": 382, "ance": 383, "anced": 384, "ancer": 385, "ances": 386, "ancy": 387, "and": 388, "anded": 389, "andem": 390, "ander": 391, "andif": 392, "andom": 393, "andon": 394, "androgen": 395, "androgenetic": 396, "androstened": 397, "andy": 398, "ane": 399, "anel": 400, "anem": 401, "anen": 402, "aneph": 403, "aner": 404, "anes": 405, "anese": 406, "anesthes": 407, "anesthetic": 408, "anorect": 409, "anorex": 410, "ant": 411, "anten": 412, "anter": 413, "antero": 414, "anterogr": 415, "anterolater": 416, "anteromed": 417, "anteroposter": 418, "anterosep": 419, "anth": 420, "anthelas": 421, "anthem": 422, "antic": 423, "anticancer": 424, "anticard": 425, "antich": 426, "antico": 427, "anto": 428, "antothen": 429, "antr": 430, "antrolene": 431, "ap": 432, "apart": 433, "apathy": 434, "aper": 435, "apered": 436, "aph": 437, "aphas": 438, "aphase": 439, "aphen": 440, "aphy": 441, "aplace": 442, "aplan": 443, "aplas": 444, "aplastic": 445, "aple": 446, "aplex": 447, "apos": 448, "app": 449, "apper": 450, "appli": 451, "appliances": 452, "application": 453, "applications": 454, "apply": 455, "apprec": 456, "appro": 457, "approchement": 458, "appropr": 459, "approved": 460, "approx": 461, "apr": 462, "aprophy": 463, "aproteren": 464, "aprox": 465, "aptomy": 466, "ar": 467, "are": 468, "ared": 469, "areli": 470, "arely": 471, "aren": 472, "arenal": 473, "arenes": 474, "arent": 475, "arenter": 476, "ares": 477, "aresthes": 478, "aresthetica": 479, "aret": 480, "arethes": 481, "aris": 482, "arise": 483, "arises": 484, "arism": 485, "arole": 486, "aroline": 487, "arom": 488, "aromat": 489, "arometr": 490, "aron": 491, "arone": 492, "aroreceptor": 493, "aros": 494, "arot": 495, "arotomy": 496, "arotra": 497, "around": 498, "arous": 499, "arox": 500, "art": 501, "arten": 502, "arter": 503, "arterectomy": 504, "arth": 505, "artic": 506, "artonel": 507, "artrate": 508, "ary": 509, "as": 510, "ase": 511, "asectomy": 512, "ased": 513, "asedow": 514, "aseline": 515, "asement": 516, "asen": 517, "asep": 518, "aser": 519, "ases": 520, "ash": 521, "ashed": 522, "asher": 523, "ashes": 524, "aside": 525, "asion": 526, "asit": 527, "asitic": 528, "asome": 529, "asor": 530, "asp": 531, "aspart": 532, "aspect": 533, "asper": 534, "asplen": 535, "ass": 536, "assed": 537, "assel": 538, "assem": 539, "asses": 540, "assigned": 541, "assoc": 542, "associated": 543, "assort": 544, "assum": 545, "assume": 546, "assumed": 547, "assumes": 548, "assuming": 549, "assur": 550, "ast": 551, "aster": 552, "astere": 553, "astest": 554, "asth": 555, "asthen": 556, "astic": 557, "astom": 558, "astr": 559, "astrectomy": 560, "astro": 561, "astroc": 562, "astrocolic": 563, "astrocy": 564, "astrod": 565, "astrop": 566, "astros": 567, "astrosplen": 568, "asu": 569, "asugrel": 570, "asur": 571, "asure": 572, "asured": 573, "asurement": 574, "asures": 575, "asy": 576, "asym": 577, "asymptomatic": 578, "asyn": 579, "at": 580, "ate": 581, "atectomy": 582, "ated": 583, "atel": 584, "atelect": 585, "ately": 586, "atement": 587, "aten": 588, "atened": 589, "atent": 590, "atentor": 591, "ater": 592, "ates": 593, "atest": 594, "ath": 595, "athe": 596, "athed": 597, "ather": 598, "athero": 599, "atheromas": 600, "atheros": 601, "athis": 602, "athy": 603, "atic": 604, "aticod": 605, "aticople": 606, "ation": 607, "ations": 608, "ative": 609, "atively": 610, "ativenes": 611, "atives": 612, "ato": 613, "atocon": 614, "atogen": 615, "atom": 616, "atoma": 617, "atomas": 618, "atomy": 619, "aton": 620, "atop": 621, "ator": 622, "atory": 623, "atos": 624, "atoses": 625, "atosis": 626, "atotic": 627, "atox": 628, "atr": 629, "atrac": 630, "atran": 631, "atrem": 632, "atres": 633, "atretic": 634, "atrob": 635, "atrogen": 636, "atrop": 637, "atroph": 638, "atrophy": 639, "atyp": 640, "atyph": 641, "atypical": 642, "ay": 643, "b": 644, "bacter": 645, "bacterem": 646, "be": 647, "bear": 648, "because": 649, "beclomethas": 650, "become": 651, "becomes": 652, "becoming": 653, "bectomy": 654, "bed": 655, "been": 656, "being": 657, "bel": 658, "beli": 659, "belon": 660, "below": 661, "ben": 662, "bene": 663, "bened": 664, "bent": 665, "benz": 666, "ber": 667, "bere": 668, "bered": 669, "besides": 670, "best": 671, "bestos": 672, "bestosis": 673, "bestrol": 674, "bet": 675, "bethanech": 676, "betich": 677, "between": 678, "blo": 679, "bloc": 680, "blood": 681, "bloody": 682, "blot": 683, "blow": 684, "body": 685, "br": 686, "bre": 687, "bris": 688, "brisk": 689, "bro": 690, "brob": 691, "broliz": 692, "brom": 693, "bron": 694, "bros": 695, "broside": 696, "brosp": 697, "brov": 698, "brow": 699, "brown": 700, "by": 701, "byp": 702, "byprod": 703, "c": 704, "ca": 705, "cab": 706, "caber": 707, "cachex": 708, "cad": 709, "cade": 710, "caf": 711, "cafe": 712, "cag": 713, "caking": 714, "cal": 715, "cala": 716, "calat": 717, "calate": 718, "calated": 719, "calates": 720, "cale": 721, "calene": 722, "calic": 723, "caling": 724, "call": 725, "called": 726, "callop": 727, "callosum": 728, "calloused": 729, "callus": 730, "caly": 731, "cam": 732, "came": 733, "can": 734, "cancer": 735, "cancerous": 736, "cand": 737, "candes": 738, "cane": 739, "cant": 740, "canth": 741, "cantham": 742, "cap": 743, "caper": 744, "caph": 745, "capp": 746, "car": 747, "carcinoma": 748, "carcinomas": 749, "card": 750, "care": 751, "careg": 752, "cares": 753, "caris": 754, "carot": 755, "cart": 756, "cary": 757, "cas": 758, "case": 759, "casein": 760, "cases": 761, "casp": 762, "cast": 763, "cat": 764, "cate": 765, "catech": 766, "cated": 767, "caten": 768, "cates": 769, "cath": 770, "catheter": 771, "cation": 772, "cations": 773, "cato": 774, "cause": 775, "caused": 776, "causes": 777, "ce": 778, "cec": 779, "cecal": 780, "ced": 781, "cein": 782, "cel": 783, "celain": 784, "celecox": 785, "celer": 786, "celiac": 787, "celism": 788, "cell": 789, "cella": 790, "cellosis": 791, "cells": 792, "cellular": 793, "cellulitis": 794, "cem": 795, "cement": 796, "cen": 797, "cent": 798, "center": 799, "centic": 800, "centr": 801, "central": 802, "centrally": 803, "centrat": 804, "centrate": 805, "centrated": 806, "centration": 807, "centrations": 808, "centromere": 809, "cep": 810, "cephalic": 811, "cephalitic": 812, "cephalitis": 813, "cephalo": 814, "cephalocele": 815, "cephalomy": 816, "cephalon": 817, "cephalopath": 818, "cephalopathy": 819, "cephalosp": 820, "cephaly": 821, "cer": 822, "cere": 823, "cerol": 824, "ces": 825, "cestode": 826, "cet": 827, "cetoma": 828, "ch": 829, "cha": 830, "chable": 831, "chain": 832, "chal": 833, "chala": 834, "chalas": 835, "challen": 836, "cham": 837, "chan": 838, "chance": 839, "chances": 840, "chaperone": 841, "char": 842, "character": 843, "characteristic": 844, "characteristically": 845, "characterized": 846, "charomy": 847, "chart": 848, "chat": 849, "che": 850, "chec": 851, "ched": 852, "chelat": 853, "chelate": 854, "chelated": 855, "chelation": 856, "chelator": 857, "chem": 858, "chen": 859, "cher": 860, "cherer": 861, "ches": 862, "chest": 863, "chil": 864, "chor": 865, "chore": 866, "choristoma": 867, "choro": 868, "chow": 869, "chronic": 870, "chronically": 871, "chy": 872, "cin": 873, "cine": 874, "cines": 875, "cinetobacter": 876, "cing": 877, "cinoma": 878, "cinomas": 879, "cl": 880, "cla": 881, "cladr": 882, "clage": 883, "clam": 884, "clar": 885, "clase": 886, "clasp": 887, "class": 888, "classes": 889, "clat": 890, "clath": 891, "cle": 892, "clear": 893, "cleared": 894, "cled": 895, "clen": 896, "cler": 897, "cleroder": 898, "cleros": 899, "clerosis": 900, "clerosus": 901, "clerotic": 902, "cles": 903, "clic": 904, "clical": 905, "clid": 906, "clide": 907, "clim": 908, "climate": 909, "clin": 910, "clind": 911, "cline": 912, "clines": 913, "cling": 914, "clitor": 915, "clitoris": 916, "clitorome": 917, "clo": 918, "clobenz": 919, "cloc": 920, "clof": 921, "clom": 922, "clomine": 923, "clon": 924, "clone": 925, "clop": 926, "cloph": 927, "clos": 928, "close": 929, "closed": 930, "closely": 931, "closer": 932, "closes": 933, "closp": 934, "clostr": 935, "closure": 936, "clot": 937, "cloth": 938, "clothy": 939, "clover": 940, "clovir": 941, "clu": 942, "club": 943, "clues": 944, "clum": 945, "clus": 946, "clusion": 947, "cluster": 948, "clustered": 949, "co": 950, "cob": 951, "cobacter": 952, "coc": 953, "cocaine": 954, "cocaly": 955, "cocc": 956, "coccob": 957, "coccy": 958, "cocere": 959, "coch": 960, "cocortico": 961, "cocorticostero": 962, "cocy": 963, "cod": 964, "code": 965, "coded": 966, "codeine": 967, "codes": 968, "codomin": 969, "codon": 970, "cof": 971, "cofactor": 972, "cog": 973, "cogen": 974, "cogene": 975, "cogenes": 976, "col": 977, "colem": 978, "colep": 979, "colese": 980, "colest": 981, "colex": 982, "coli": 983, "colic": 984, "colip": 985, "colitis": 986, "colon": 987, "color": 988, "colorect": 989, "colored": 990, "colostr": 991, "coloves": 992, "colum": 993, "coly": 994, "com": 995, "coma": 996, "comas": 997, "comatose": 998, "come": 999, "comedon": 1000, "comere": 1001, "comeres": 1002, "comes": 1003, "common": 1004, "commonly": 1005, "comp": 1006, "compart": 1007, "compat": 1008, "complain": 1009, "complement": 1010, "complet": 1011, "completion": 1012, "complex": 1013, "compliance": 1014, "compliant": 1015, "complicated": 1016, "complication": 1017, "complications": 1018, "complish": 1019, "complished": 1020, "complishes": 1021, "compose": 1022, "composed": 1023, "composes": 1024, "composition": 1025, "compre": 1026, "compres": 1027, "comprise": 1028, "comprised": 1029, "comprises": 1030, "comprom": 1031, "comy": 1032, "con": 1033, "cond": 1034, "conden": 1035, "condition": 1036, "conditioned": 1037, "condy": 1038, "cone": 1039, "cones": 1040, "cons": 1041, "conse": 1042, "consec": 1043, "consen": 1044, "consent": 1045, "conser": 1046, "consider": 1047, "considered": 1048, "const": 1049, "constr": 1050, "construct": 1051, "construction": 1052, "consult": 1053, "consum": 1054, "consume": 1055, "consumed": 1056, "consumes": 1057, "consuming": 1058, "cont": 1059, "content": 1060, "contr": 1061, "contra": 1062, "contracep": 1063, "contract": 1064, "contraction": 1065, "contraind": 1066, "contralater": 1067, "contrast": 1068, "control": 1069, "cop": 1070, "cophen": 1071, "coplas": 1072, "copres": 1073, "coprolalia": 1074, "coprop": 1075, "coprotein": 1076, "cor": 1077, "core": 1078, "coreceptor": 1079, "cores": 1080, "coron": 1081, "cort": 1082, "cortical": 1083, "cortically": 1084, "cortices": 1085, "corticob": 1086, "corticop": 1087, "corticosp": 1088, "corticostero": 1089, "corticosterone": 1090, "corticotrop": 1091, "corticotroph": 1092, "cos": 1093, "cose": 1094, "coses": 1095, "coside": 1096, "cosides": 1097, "cosis": 1098, "cositis": 1099, "cosity": 1100, "cost": 1101, "costoch": 1102, "costoster": 1103, "costover": 1104, "cosur": 1105, "cosy": 1106, "cot": 1107, "cotest": 1108, "cotic": 1109, "cotransp": 1110, "could": 1111, "coun": 1112, "cous": 1113, "cousy": 1114, "cov": 1115, "cover": 1116, "covered": 1117, "cow": 1118, "cox": 1119, "cr": 1120, "cre": 1121, "creen": 1122, "creened": 1123, "crelip": 1124, "cremaster": 1125, "crep": 1126, "cres": 1127, "crest": 1128, "cret": 1129, "cretion": 1130, "cretor": 1131, "cris": 1132, "crises": 1133, "crist": 1134, "cro": 1135, "crof": 1136, "crop": 1137, "cros": 1138, "crose": 1139, "crot": 1140, "crow": 1141, "crown": 1142, "ct": 1143, "cter": 1144, "cthy": 1145, "ction": 1146, "ctre": 1147, "cy": 1148, "cypro": 1149, "cypromine": 1150, "d": 1151, "de": 1152, "dec": 1153, "decade": 1154, "decar": 1155, "decay": 1156, "dece": 1157, "decel": 1158, "deceler": 1159, "decere": 1160, "declared": 1161, "declin": 1162, "decline": 1163, "deco": 1164, "decomp": 1165, "decompres": 1166, "decon": 1167, "decont": 1168, "decorticate": 1169, "decre": 1170, "decres": 1171, "ded": 1172, "def": 1173, "defecation": 1174, "defect": 1175, "defen": 1176, "defer": 1177, "deferen": 1178, "deferox": 1179, "deficiency": 1180, "deform": 1181, "deforman": 1182, "deformation": 1183, "deformed": 1184, "deforming": 1185, "del": 1186, "delay": 1187, "delen": 1188, "delet": 1189, "deletion": 1190, "deli": 1191, "delian": 1192, "deliber": 1193, "delir": 1194, "deliver": 1195, "delivered": 1196, "delusion": 1197, "dem": 1198, "dema": 1199, "demand": 1200, "demar": 1201, "demeclocy": 1202, "dement": 1203, "demethy": 1204, "demon": 1205, "demy": 1206, "den": 1207, "dened": 1208, "dener": 1209, "dent": 1210, "dep": 1211, "depart": 1212, "deper": 1213, "deph": 1214, "deplet": 1215, "depletion": 1216, "deposit": 1217, "deposition": 1218, "deposits": 1219, "depr": 1220, "depres": 1221, "der": 1222, "dere": 1223, "dered": 1224, "derism": 1225, "des": 1226, "deser": 1227, "design": 1228, "designed": 1229, "desp": 1230, "dest": 1231, "destro": 1232, "destruct": 1233, "destruction": 1234, "det": 1235, "deter": 1236, "determin": 1237, "determine": 1238, "determined": 1239, "determines": 1240, "detox": 1241, "detr": 1242, "develop": 1243, "development": 1244, "dex": 1245, "diagn": 1246, "diagnosis": 1247, "dif": 1248, "dis": 1249, "dise": 1250, "disease": 1251, "diseased": 1252, "diseases": 1253, "dish": 1254, "dism": 1255, "disor": 1256, "disorder": 1257, "disordered": 1258, "disper": 1259, "displace": 1260, "displaced": 1261, "displacement": 1262, "display": 1263, "disprop": 1264, "dist": 1265, "disten": 1266, "distention": 1267, "distortion": 1268, "distr": 1269, "distract": 1270, "distres": 1271, "disul": 1272, "do": 1273, "dob": 1274, "doc": 1275, "docan": 1276, "docard": 1277, "docer": 1278, "doch": 1279, "docr": 1280, "doctor": 1281, "docy": 1282, "dod": 1283, "dodement": 1284, "doder": 1285, "does": 1286, "dof": 1287, "dofet": 1288, "dofr": 1289, "dog": 1290, "dogen": 1291, "dol": 1292, "dolase": 1293, "dolen": 1294, "dolymph": 1295, "domain": 1296, "dome": 1297, "domem": 1298, "domen": 1299, "dometr": 1300, "domin": 1301, "dominal": 1302, "domon": 1303, "domy": 1304, "don": 1305, "done": 1306, "donep": 1307, "donor": 1308, "dop": 1309, "doph": 1310, "doplas": 1311, "doplication": 1312, "dor": 1313, "dos": 1314, "dose": 1315, "dosed": 1316, "doses": 1317, "dosomes": 1318, "dosp": 1319, "dosteron": 1320, "dosterone": 1321, "dot": 1322, "doth": 1323, "dothelial": 1324, "dothelin": 1325, "dothelium": 1326, "dotox": 1327, "dotrache": 1328, "dotumor": 1329, "dous": 1330, "dov": 1331, "dovirus": 1332, "down": 1333, "dox": 1334, "dr": 1335, "dre": 1336, "dren": 1337, "drenal": 1338, "dres": 1339, "dro": 1340, "drob": 1341, "drocar": 1342, "drocele": 1343, "droceles": 1344, "drocephalus": 1345, "droch": 1346, "drocodone": 1347, "drocort": 1348, "drocy": 1349, "drof": 1350, "drog": 1351, "drogen": 1352, "droly": 1353, "drom": 1354, "droma": 1355, "dromalac": 1356, "dromas": 1357, "drome": 1358, "dromes": 1359, "dron": 1360, "droneph": 1361, "drop": 1362, "droph": 1363, "droplas": 1364, "droplet": 1365, "dror": 1366, "dros": 1367, "drost": 1368, "drotestosterone": 1369, "drothor": 1370, "drow": 1371, "drown": 1372, "drox": 1373, "drug": 1374, "dur": 1375, "during": 1376, "dy": 1377, "e": 1378, "ear": 1379, "eart": 1380, "earth": 1381, "ec": 1382, "eca": 1383, "ecalis": 1384, "ecan": 1385, "ecap": 1386, "ecaser": 1387, "ecator": 1388, "ecay": 1389, "ecep": 1390, "ech": 1391, "echan": 1392, "eclam": 1393, "ecog": 1394, "ecolog": 1395, "ecom": 1396, "econd": 1397, "ecorticate": 1398, "ect": 1399, "ecthy": 1400, "ection": 1401, "ectocer": 1402, "ectoder": 1403, "ectomy": 1404, "ectop": 1405, "ector": 1406, "ectoris": 1407, "ectr": 1408, "ed": 1409, "ede": 1410, "eded": 1411, "edel": 1412, "edema": 1413, "edeman": 1414, "edematous": 1415, "edis": 1416, "edre": 1417, "edrop": 1418, "edroph": 1419, "edy": 1420, "een": 1421, "effect": 1422, "effector": 1423, "effects": 1424, "ein": 1425, "eine": 1426, "einem": 1427, "eing": 1428, "el": 1429, "ela": 1430, "elaces": 1431, "elan": 1432, "elap": 1433, "elar": 1434, "elas": 1435, "elashes": 1436, "elast": 1437, "elastic": 1438, "elastosis": 1439, "ele": 1440, "elect": 1441, "electr": 1442, "electrocard": 1443, "electrocon": 1444, "electrode": 1445, "electrodes": 1446, "electroly": 1447, "electron": 1448, "electronic": 1449, "electrophores": 1450, "electrosur": 1451, "element": 1452, "elen": 1453, "elephant": 1454, "eles": 1455, "elet": 1456, "eleton": 1457, "eli": 1458, "elia": 1459, "eliac": 1460, "elic": 1461, "elicobacter": 1462, "elid": 1463, "elig": 1464, "elimin": 1465, "elin": 1466, "eling": 1467, "elis": 1468, "elitis": 1469, "elo": 1470, "elob": 1471, "eloc": 1472, "elocard": 1473, "elocy": 1474, "elody": 1475, "elof": 1476, "elogen": 1477, "elogr": 1478, "elom": 1479, "eloma": 1480, "elomen": 1481, "elomer": 1482, "elon": 1483, "eloneph": 1484, "elopathy": 1485, "eloperox": 1486, "eloph": 1487, "eloprolifer": 1488, "elosup": 1489, "elu": 1490, "elut": 1491, "ely": 1492, "em": 1493, "ema": 1494, "emab": 1495, "emag": 1496, "eman": 1497, "emat": 1498, "ematob": 1499, "ematocr": 1500, "ematop": 1501, "ematous": 1502, "eme": 1503, "emed": 1504, "ement": 1505, "emer": 1506, "emes": 1507, "emest": 1508, "emetic": 1509, "emetogen": 1510, "emin": 1511, "emine": 1512, "eminen": 1513, "eminent": 1514, "emy": 1515, "en": 1516, "enamel": 1517, "ene": 1518, "ened": 1519, "enem": 1520, "enema": 1521, "ener": 1522, "enes": 1523, "enetrab": 1524, "enetrable": 1525, "enetrance": 1526, "enetrat": 1527, "enetrate": 1528, "enetrates": 1529, "enetration": 1530, "ent": 1531, "enter": 1532, "entero": 1533, "enteroc": 1534, "enterococc": 1535, "enterocolitica": 1536, "enterocolitis": 1537, "enterocy": 1538, "enterop": 1539, "enteropath": 1540, "enterotox": 1541, "enterovirus": 1542, "enteroviruses": 1543, "enthesitis": 1544, "entob": 1545, "enton": 1546, "entor": 1547, "entr": 1548, "entral": 1549, "entrance": 1550, "entrap": 1551, "entrapp": 1552, "enz": 1553, "enzy": 1554, "enzyme": 1555, "enzymes": 1556, "ep": 1557, "epart": 1558, "epat": 1559, "epatic": 1560, "eper": 1561, "ephalex": 1562, "ephalin": 1563, "ephalosp": 1564, "ephedr": 1565, "ephelides": 1566, "eplacement": 1567, "eplase": 1568, "eple": 1569, "eplerenone": 1570, "eplir": 1571, "epot": 1572, "eprocess": 1573, "epromatous": 1574, "epromin": 1575, "eprosy": 1576, "er": 1577, "ere": 1578, "erect": 1579, "erection": 1580, "ered": 1581, "erel": 1582, "ero": 1583, "erob": 1584, "erobe": 1585, "erobes": 1586, "eroder": 1587, "eromon": 1588, "eroph": 1589, "eros": 1590, "erosion": 1591, "erostom": 1592, "erox": 1593, "es": 1594, "ese": 1595, "esen": 1596, "eser": 1597, "esides": 1598, "esion": 1599, "esp": 1600, "espec": 1601, "est": 1602, "estem": 1603, "ester": 1604, "esterolem": 1605, "esthetic": 1606, "estic": 1607, "estr": 1608, "estrad": 1609, "estrogen": 1610, "estrone": 1611, "esy": 1612, "et": 1613, "eten": 1614, "etener": 1615, "etent": 1616, "eterm": 1617, "eth": 1618, "ethacr": 1619, "etham": 1620, "ethan": 1621, "ethanech": 1622, "ethem": 1623, "ethy": 1624, "etic": 1625, "eto": 1626, "etocon": 1627, "etog": 1628, "etogen": 1629, "etogenes": 1630, "etom": 1631, "eton": 1632, "etone": 1633, "etones": 1634, "etoposide": 1635, "etorolac": 1636, "etot": 1637, "etotic": 1638, "etr": 1639, "etra": 1640, "etraben": 1641, "etracaine": 1642, "etracy": 1643, "etralog": 1644, "etramer": 1645, "etro": 1646, "etrodotox": 1647, "etron": 1648, "etros": 1649, "etrosis": 1650, "etrous": 1651, "etrovir": 1652, "etween": 1653, "ex": 1654, "f": 1655, "factor": 1656, "fe": 1657, "fear": 1658, "feared": 1659, "feat": 1660, "fecal": 1661, "fecalur": 1662, "feces": 1663, "fect": 1664, "fection": 1665, "fed": 1666, "feine": 1667, "fel": 1668, "fem": 1669, "female": 1670, "females": 1671, "fen": 1672, "fenestrated": 1673, "fenestrations": 1674, "fent": 1675, "fep": 1676, "fer": 1677, "fere": 1678, "fered": 1679, "feren": 1680, "ferent": 1681, "feres": 1682, "feron": 1683, "fet": 1684, "fetomater": 1685, "fetoprotein": 1686, "fex": 1687, "ffect": 1688, "fir": 1689, "fire": 1690, "firear": 1691, "fires": 1692, "first": 1693, "for": 1694, "fore": 1695, "forear": 1696, "foreg": 1697, "foreloc": 1698, "form": 1699, "formance": 1700, "formation": 1701, "formations": 1702, "formative": 1703, "formed": 1704, "former": 1705, "formin": 1706, "forming": 1707, "fort": 1708, "fr": 1709, "fre": 1710, "frec": 1711, "frem": 1712, "frequen": 1713, "frequent": 1714, "fresh": 1715, "frog": 1716, "from": 1717, "fron": 1718, "frost": 1719, "frothy": 1720, "fun": 1721, "function": 1722, "functioned": 1723, "g": 1724, "gan": 1725, "ganel": 1726, "ge": 1727, "ged": 1728, "gel": 1729, "gelat": 1730, "gely": 1731, "gem": 1732, "gement": 1733, "gen": 1734, "gene": 1735, "gener": 1736, "generosity": 1737, "genes": 1738, "genetic": 1739, "genetically": 1740, "gent": 1741, "ger": 1742, "gered": 1743, "gerous": 1744, "ges": 1745, "gest": 1746, "gestion": 1747, "gestrel": 1748, "gestrol": 1749, "get": 1750, "geto": 1751, "gr": 1752, "gre": 1753, "green": 1754, "greg": 1755, "gren": 1756, "grene": 1757, "gres": 1758, "grise": 1759, "gro": 1760, "grocer": 1761, "gron": 1762, "gros": 1763, "ground": 1764, "grow": 1765, "grown": 1766, "h": 1767, "ha": 1768, "hab": 1769, "had": 1770, "hag": 1771, "hage": 1772, "hages": 1773, "hain": 1774, "hak": 1775, "hal": 1776, "halam": 1777, "halase": 1778, "halassem": 1779, "halation": 1780, "hale": 1781, "haled": 1782, "halen": 1783, "haler": 1784, "halis": 1785, "hall": 1786, "hallu": 1787, "halo": 1788, "halogen": 1789, "haloper": 1790, "halos": 1791, "halose": 1792, "halothane": 1793, "ham": 1794, "hamartoma": 1795, "hamartomas": 1796, "hamartomatous": 1797, "hamate": 1798, "han": 1799, "hance": 1800, "hanced": 1801, "hancement": 1802, "hancer": 1803, "hances": 1804, "hand": 1805, "hap": 1806, "haplo": 1807, "haplotype": 1808, "happ": 1809, "har": 1810, "hary": 1811, "has": 1812, "hase": 1813, "hat": 1814, "have": 1815, "hay": 1816, "he": 1817, "hear": 1818, "heart": 1819, "hed": 1820, "hedon": 1821, "hel": 1822, "heli": 1823, "helical": 1824, "helicase": 1825, "helicotrema": 1826, "helium": 1827, "hem": 1828, "hemag": 1829, "heman": 1830, "hemarth": 1831, "hemat": 1832, "hematemes": 1833, "hematoche": 1834, "hematocr": 1835, "hematogen": 1836, "hematolog": 1837, "hematoma": 1838, "hematomas": 1839, "hematop": 1840, "heme": 1841, "hemine": 1842, "hemost": 1843, "hen": 1844, "hep": 1845, "hepat": 1846, "hepatic": 1847, "hepato": 1848, "hepatob": 1849, "hepatocellular": 1850, "hepatocy": 1851, "hepatod": 1852, "hepatome": 1853, "hepatop": 1854, "hepatorenal": 1855, "hepatosplen": 1856, "hepatotox": 1857, "her": 1858, "here": 1859, "hered": 1860, "heren": 1861, "herent": 1862, "hero": 1863, "hes": 1864, "hesion": 1865, "hesit": 1866, "hest": 1867, "het": 1868, "hetero": 1869, "heterod": 1870, "heterogen": 1871, "heterogene": 1872, "heteroph": 1873, "heteroplas": 1874, "hex": 1875, "hib": 1876, "hiber": 1877, "high": 1878, "higher": 1879, "highest": 1880, "hor": 1881, "horistoma": 1882, "hort": 1883, "how": 1884, "hy": 1885, "hyp": 1886, "hyper": 1887, "hyperech": 1888, "hyperem": 1889, "hyperemes": 1890, "hyperesthes": 1891, "hyperestr": 1892, "hyperestrogen": 1893, "hyperex": 1894, "hyperop": 1895, "hyperos": 1896, "hypha": 1897, "hypos": 1898, "hyposp": 1899, "hyposplen": 1900, "hypoten": 1901, "hypothalam": 1902, "hypothalamus": 1903, "hypothen": 1904, "hypother": 1905, "hypothes": 1906, "hypothetical": 1907, "hypothy": 1908, "hypoton": 1909, "i": 1910, "ia": 1911, "iab": 1912, "iabet": 1913, "iabetic": 1914, "iable": 1915, "iables": 1916, "iac": 1917, "iacin": 1918, "iad": 1919, "iag": 1920, "iage": 1921, "iagen": 1922, "iages": 1923, "iaget": 1924, "iak": 1925, "ial": 1926, "ialaden": 1927, "ialic": 1928, "ialis": 1929, "ialist": 1930, "iality": 1931, "ializ": 1932, "ialized": 1933, "ially": 1934, "ialolith": 1935, "ials": 1936, "ialy": 1937, "iam": 1938, "iameter": 1939, "iamine": 1940, "iamon": 1941, "iamy": 1942, "ian": 1943, "iance": 1944, "iandrosterone": 1945, "iant": 1946, "iap": 1947, "iaper": 1948, "iaph": 1949, "iaphores": 1950, "iaphy": 1951, "iapp": 1952, "iar": 1953, "iare": 1954, "iartic": 1955, "iary": 1956, "ias": 1957, "iast": 1958, "iastole": 1959, "iastolic": 1960, "iat": 1961, "iate": 1962, "iated": 1963, "iately": 1964, "iatenes": 1965, "iates": 1966, "iatic": 1967, "iatica": 1968, "iation": 1969, "iations": 1970, "iative": 1971, "iator": 1972, "iatr": 1973, "iatrist": 1974, "iatrogen": 1975, "ib": 1976, "ibacter": 1977, "ibe": 1978, "ibed": 1979, "ibel": 1980, "iber": 1981, "iberop": 1982, "ibes": 1983, "ible": 1984, "ibles": 1985, "ibody": 1986, "ibr": 1987, "ibro": 1988, "ibrob": 1989, "ibrocy": 1990, "ibroma": 1991, "ibromas": 1992, "ibromatosis": 1993, "ibromin": 1994, "ibromus": 1995, "ibromy": 1996, "ibron": 1997, "ibronect": 1998, "ibros": 1999, "ibrosis": 2000, "ibrotic": 2001, "ibrous": 2002, "ibrov": 2003, "ic": 2004, "ica": 2005, "icable": 2006, "icacy": 2007, "ical": 2008, "icalis": 2009, "ically": 2010, "icals": 2011, "icam": 2012, "ican": 2013, "icance": 2014, "icant": 2015, "icanthal": 2016, "icar": 2017, "icard": 2018, "icare": 2019, "icase": 2020, "icat": 2021, "icate": 2022, "icated": 2023, "icates": 2024, "ication": 2025, "ications": 2026, "icative": 2027, "icator": 2028, "icatr": 2029, "ice": 2030, "iced": 2031, "icella": 2032, "icelles": 2033, "icem": 2034, "icen": 2035, "icentral": 2036, "icep": 2037, "icer": 2038, "ices": 2039, "ich": 2040, "icha": 2041, "iche": 2042, "iched": 2043, "ichor": 2044, "icien": 2045, "iciency": 2046, "icient": 2047, "icin": 2048, "icinal": 2049, "icine": 2050, "icle": 2051, "icles": 2052, "iclib": 2053, "icline": 2054, "iclofen": 2055, "iclone": 2056, "iclovir": 2057, "ico": 2058, "icocele": 2059, "icoceles": 2060, "icof": 2061, "icol": 2062, "icolin": 2063, "icolog": 2064, "icolor": 2065, "icon": 2066, "icondy": 2067, "icophary": 2068, "icor": 2069, "icose": 2070, "icosis": 2071, "icosit": 2072, "icosur": 2073, "icot": 2074, "icothy": 2075, "icov": 2076, "icr": 2077, "icro": 2078, "icrob": 2079, "icrobe": 2080, "icrobes": 2081, "icroc": 2082, "icrocal": 2083, "icrocephaly": 2084, "icrocolon": 2085, "icrocy": 2086, "icrodeletion": 2087, "icrof": 2088, "icrog": 2089, "icroliter": 2090, "icron": 2091, "icrop": 2092, "icroph": 2093, "icroprolact": 2094, "icros": 2095, "icrosomes": 2096, "icrosp": 2097, "icrosur": 2098, "icrot": 2099, "icroth": 2100, "icrotic": 2101, "icrov": 2102, "ict": 2103, "icter": 2104, "iction": 2105, "ictor": 2106, "icy": 2107, "id": 2108, "ide": 2109, "idectom": 2110, "idectomy": 2111, "ided": 2112, "idel": 2113, "ideline": 2114, "idelines": 2115, "idelity": 2116, "idely": 2117, "idem": 2118, "idement": 2119, "iden": 2120, "idened": 2121, "ident": 2122, "identical": 2123, "idepres": 2124, "ider": 2125, "ides": 2126, "idespre": 2127, "idif": 2128, "idiform": 2129, "idis": 2130, "idism": 2131, "idney": 2132, "ido": 2133, "idodr": 2134, "idof": 2135, "idog": 2136, "idogenes": 2137, "idogrel": 2138, "idol": 2139, "idomasto": 2140, "idomy": 2141, "idon": 2142, "idone": 2143, "idop": 2144, "idor": 2145, "idos": 2146, "idosis": 2147, "idost": 2148, "idot": 2149, "idotrans": 2150, "idov": 2151, "idow": 2152, "idr": 2153, "idu": 2154, "iduct": 2155, "idues": 2156, "idum": 2157, "idur": 2158, "idureth": 2159, "idus": 2160, "idy": 2161, "ien": 2162, "iene": 2163, "ienes": 2164, "ient": 2165, "ies": 2166, "iester": 2167, "if": 2168, "ifactor": 2169, "ife": 2170, "ifed": 2171, "ifen": 2172, "ifene": 2173, "ifenes": 2174, "ifepristone": 2175, "iferol": 2176, "iferon": 2177, "iferous": 2178, "ifest": 2179, "iform": 2180, "iforme": 2181, "ifre": 2182, "ifron": 2183, "ifun": 2184, "ifunction": 2185, "ig": 2186, "igant": 2187, "igecy": 2188, "igel": 2189, "igeminal": 2190, "igen": 2191, "igenetic": 2192, "iger": 2193, "igest": 2194, "igestion": 2195, "igh": 2196, "ight": 2197, "ightened": 2198, "ighter": 2199, "ighth": 2200, "ightw": 2201, "ign": 2202, "igner": 2203, "ignet": 2204, "igr": 2205, "igre": 2206, "igrostr": 2207, "il": 2208, "ila": 2209, "ilab": 2210, "ilable": 2211, "ilag": 2212, "ilage": 2213, "ilages": 2214, "ilament": 2215, "ilamentous": 2216, "ilamin": 2217, "ilance": 2218, "ilane": 2219, "ilant": 2220, "ilar": 2221, "ilaris": 2222, "ilast": 2223, "ilat": 2224, "ilate": 2225, "ilated": 2226, "ilater": 2227, "ilates": 2228, "ilation": 2229, "ilative": 2230, "ilator": 2231, "ilatory": 2232, "ile": 2233, "ilection": 2234, "iled": 2235, "ilen": 2236, "ilent": 2237, "ilep": 2238, "iles": 2239, "ilestone": 2240, "ilestones": 2241, "ilet": 2242, "ili": 2243, "ilia": 2244, "iliac": 2245, "ilial": 2246, "iliar": 2247, "iliary": 2248, "iliated": 2249, "ilibr": 2250, "ilic": 2251, "ilica": 2252, "ilical": 2253, "ilicated": 2254, "ilicosis": 2255, "ilicotic": 2256, "ilide": 2257, "ilien": 2258, "ilies": 2259, "ilig": 2260, "ilim": 2261, "ilin": 2262, "iline": 2263, "iling": 2264, "ilir": 2265, "ilis": 2266, "ilit": 2267, "iliter": 2268, "ility": 2269, "ilium": 2270, "iliver": 2271, "iliz": 2272, "ilized": 2273, "ilo": 2274, "ilob": 2275, "iloc": 2276, "ilocar": 2277, "ilocy": 2278, "ilol": 2279, "ilon": 2280, "iloper": 2281, "iloprost": 2282, "ilor": 2283, "ilost": 2284, "ilother": 2285, "ilovir": 2286, "ilovirus": 2287, "iloviruses": 2288, "ilu": 2289, "ilum": 2290, "ilumab": 2291, "ilun": 2292, "ilur": 2293, "ilure": 2294, "ilures": 2295, "ilus": 2296, "ilut": 2297, "ilute": 2298, "ily": 2299, "im": 2300, "ima": 2301, "imab": 2302, "imag": 2303, "imaged": 2304, "imal": 2305, "imalar": 2306, "imally": 2307, "imals": 2308, "iman": 2309, "imant": 2310, "imary": 2311, "imat": 2312, "imate": 2313, "imated": 2314, "imately": 2315, "imation": 2316, "imatoprost": 2317, "ime": 2318, "imed": 2319, "imeline": 2320, "imem": 2321, "imen": 2322, "iment": 2323, "imepre": 2324, "imer": 2325, "imes": 2326, "imester": 2327, "imet": 2328, "imeth": 2329, "imethamine": 2330, "imethy": 2331, "imetic": 2332, "imetr": 2333, "imin": 2334, "iminality": 2335, "imine": 2336, "iming": 2337, "imm": 2338, "immat": 2339, "immed": 2340, "immer": 2341, "imminent": 2342, "imming": 2343, "imon": 2344, "imp": 2345, "impart": 2346, "imper": 2347, "implant": 2348, "imple": 2349, "implex": 2350, "implicated": 2351, "implication": 2352, "implications": 2353, "implies": 2354, "imply": 2355, "imposed": 2356, "impoten": 2357, "impr": 2358, "improper": 2359, "improv": 2360, "improve": 2361, "improved": 2362, "improvement": 2363, "improves": 2364, "imus": 2365, "imy": 2366, "in": 2367, "inal": 2368, "inale": 2369, "inalis": 2370, "inaly": 2371, "incre": 2372, "increased": 2373, "incret": 2374, "ind": 2375, "indent": 2376, "indep": 2377, "inder": 2378, "indetermin": 2379, "index": 2380, "indif": 2381, "inding": 2382, "individu": 2383, "individuals": 2384, "indole": 2385, "indolent": 2386, "indolol": 2387, "indomethacin": 2388, "indow": 2389, "indur": 2390, "ine": 2391, "ined": 2392, "ineffect": 2393, "inel": 2394, "inelig": 2395, "inely": 2396, "inem": 2397, "inen": 2398, "inent": 2399, "ineph": 2400, "iner": 2401, "ines": 2402, "inese": 2403, "inf": 2404, "infect": 2405, "infection": 2406, "infer": 2407, "infest": 2408, "information": 2409, "infr": 2410, "infrequent": 2411, "infun": 2412, "ing": 2413, "inge": 2414, "inged": 2415, "ingement": 2416, "ingen": 2417, "inger": 2418, "inges": 2419, "ingest": 2420, "ingestion": 2421, "ingr": 2422, "ingred": 2423, "ingrow": 2424, "inhib": 2425, "inon": 2426, "inone": 2427, "inones": 2428, "inor": 2429, "inter": 2430, "interest": 2431, "interm": 2432, "intermed": 2433, "intermem": 2434, "interos": 2435, "inv": 2436, "inver": 2437, "invest": 2438, "invol": 2439, "involun": 2440, "involuted": 2441, "involution": 2442, "ion": 2443, "ione": 2444, "ionel": 2445, "iones": 2446, "ior": 2447, "iorect": 2448, "ioresp": 2449, "ioret": 2450, "ioris": 2451, "ip": 2452, "ipart": 2453, "ipate": 2454, "ipated": 2455, "ipates": 2456, "ipation": 2457, "iper": 2458, "iph": 2459, "iphag": 2460, "iphalan": 2461, "iphas": 2462, "iphen": 2463, "iphene": 2464, "ipher": 2465, "iphy": 2466, "iplas": 2467, "iplash": 2468, "iplatelet": 2469, "iple": 2470, "iples": 2471, "iplet": 2472, "iplies": 2473, "iplo": 2474, "iplococc": 2475, "iplop": 2476, "iplost": 2477, "iply": 2478, "ipos": 2479, "ipose": 2480, "iposide": 2481, "iposity": 2482, "ipr": 2483, "iprocal": 2484, "iprocedur": 2485, "iprof": 2486, "iprone": 2487, "iprostone": 2488, "iproto": 2489, "ir": 2490, "ire": 2491, "irect": 2492, "irection": 2493, "ired": 2494, "irement": 2495, "iren": 2496, "ires": 2497, "iretrovir": 2498, "irochet": 2499, "irocin": 2500, "irof": 2501, "irolimus": 2502, "irometr": 2503, "iron": 2504, "irone": 2505, "irosis": 2506, "irovec": 2507, "irox": 2508, "is": 2509, "ise": 2510, "ised": 2511, "isel": 2512, "isen": 2513, "isep": 2514, "ises": 2515, "ish": 2516, "ished": 2517, "isher": 2518, "ishes": 2519, "ishy": 2520, "isible": 2521, "ision": 2522, "isit": 2523, "isition": 2524, "isits": 2525, "ism": 2526, "ismat": 2527, "ismus": 2528, "isome": 2529, "isomer": 2530, "isomes": 2531, "isometr": 2532, "isorder": 2533, "isp": 2534, "ispat": 2535, "isper": 2536, "isph": 2537, "ispher": 2538, "isphere": 2539, "ispheres": 2540, "isplat": 2541, "ispro": 2542, "ist": 2543, "isten": 2544, "istent": 2545, "ister": 2546, "istered": 2547, "isth": 2548, "istic": 2549, "istical": 2550, "istically": 2551, "istocet": 2552, "istochem": 2553, "istocompat": 2554, "istocy": 2555, "istol": 2556, "istolog": 2557, "istoly": 2558, "istone": 2559, "istones": 2560, "istopath": 2561, "istoplas": 2562, "istor": 2563, "istos": 2564, "istr": 2565, "istration": 2566, "istrations": 2567, "istres": 2568, "istronic": 2569, "isu": 2570, "isul": 2571, "isum": 2572, "isuse": 2573, "isy": 2574, "isyn": 2575, "it": 2576, "iten": 2577, "iter": 2578, "ith": 2579, "ithalamus": 2580, "itheli": 2581, "ithelial": 2582, "ithelializ": 2583, "ithelialized": 2584, "ithelium": 2585, "ither": 2586, "itic": 2587, "itical": 2588, "itically": 2589, "ition": 2590, "itis": 2591, "itish": 2592, "itive": 2593, "itively": 2594, "ito": 2595, "itoch": 2596, "itodr": 2597, "itofem": 2598, "itogen": 2599, "itol": 2600, "iton": 2601, "itone": 2602, "itop": 2603, "itor": 2604, "itored": 2605, "itosis": 2606, "itotic": 2607, "itox": 2608, "itr": 2609, "itra": 2610, "itracin": 2611, "itracon": 2612, "itral": 2613, "itrat": 2614, "itrate": 2615, "itrates": 2616, "itre": 2617, "itro": 2618, "itrob": 2619, "itroch": 2620, "itrof": 2621, "itrog": 2622, "itrogen": 2623, "itrophen": 2624, "itropr": 2625, "itros": 2626, "itrosure": 2627, "itrot": 2628, "itrous": 2629, "its": 2630, "itsel": 2631, "itumor": 2632, "ity": 2633, "ium": 2634, "iv": 2635, "ive": 2636, "ived": 2637, "ively": 2638, "iven": 2639, "ivenes": 2640, "iventr": 2641, "iver": 2642, "ives": 2643, "ivir": 2644, "ivirus": 2645, "iviruses": 2646, "iz": 2647, "ized": 2648, "j": 2649, "k": 2650, "kidney": 2651, "kin": 2652, "kind": 2653, "kinder": 2654, "kine": 2655, "kines": 2656, "kinetic": 2657, "king": 2658, "kn": 2659, "kne": 2660, "knes": 2661, "l": 2662, "la": 2663, "lab": 2664, "label": 2665, "labet": 2666, "lable": 2667, "lables": 2668, "labr": 2669, "labrous": 2670, "laby": 2671, "lac": 2672, "lacent": 2673, "lacer": 2674, "laceto": 2675, "lach": 2676, "lacr": 2677, "lact": 2678, "lactic": 2679, "lactically": 2680, "lactob": 2681, "lactofer": 2682, "lactogen": 2683, "lactose": 2684, "lad": 2685, "laden": 2686, "ladr": 2687, "laf": 2688, "lag": 2689, "lagel": 2690, "lagen": 2691, "lagr": 2692, "lain": 2693, "lak": 2694, "laking": 2695, "lalaline": 2696, "lalan": 2697, "lam": 2698, "lame": 2699, "lamed": 2700, "lamel": 2701, "lamin": 2702, "lamine": 2703, "lamines": 2704, "lamy": 2705, "lan": 2706, "lance": 2707, "land": 2708, "lant": 2709, "lanto": 2710, "lap": 2711, "lapp": 2712, "lar": 2713, "lare": 2714, "lares": 2715, "laris": 2716, "lary": 2717, "las": 2718, "lase": 2719, "lases": 2720, "lash": 2721, "lashes": 2722, "lass": 2723, "lasses": 2724, "last": 2725, "lastic": 2726, "lastocy": 2727, "lastoma": 2728, "lastomas": 2729, "lastomy": 2730, "lat": 2731, "late": 2732, "lated": 2733, "laten": 2734, "latent": 2735, "later": 2736, "lates": 2737, "latex": 2738, "lation": 2739, "lator": 2740, "latox": 2741, "lay": 2742, "le": 2743, "lead": 2744, "leaden": 2745, "lear": 2746, "lec": 2747, "lecain": 2748, "lecle": 2749, "lect": 2750, "lection": 2751, "lectron": 2752, "led": 2753, "ledema": 2754, "lein": 2755, "lem": 2756, "lematic": 2757, "lement": 2758, "len": 2759, "lene": 2760, "lenec": 2761, "lent": 2762, "lentic": 2763, "lep": 2764, "leph": 2765, "lephar": 2766, "lepharob": 2767, "lepharosp": 2768, "lepr": 2769, "lepromatous": 2770, "leprosy": 2771, "leptoman": 2772, "leptomen": 2773, "ler": 2774, "les": 2775, "lesh": 2776, "leshy": 2777, "lesion": 2778, "lestone": 2779, "let": 2780, "lethal": 2781, "lethan": 2782, "lethar": 2783, "letro": 2784, "level": 2785, "levels": 2786, "lex": 2787, "li": 2788, "lia": 2789, "liad": 2790, "lial": 2791, "liam": 2792, "lib": 2793, "liber": 2794, "lic": 2795, "lication": 2796, "lice": 2797, "lich": 2798, "lichen": 2799, "licle": 2800, "licles": 2801, "licor": 2802, "lict": 2803, "lid": 2804, "lidocaine": 2805, "lient": 2806, "lies": 2807, "liest": 2808, "lif": 2809, "life": 2810, "lifecy": 2811, "lifelon": 2812, "lifest": 2813, "lifet": 2814, "liform": 2815, "lig": 2816, "ligand": 2817, "ligen": 2818, "light": 2819, "lighter": 2820, "lighthe": 2821, "ligr": 2822, "lik": 2823, "likely": 2824, "liliter": 2825, "lim": 2826, "limep": 2827, "limp": 2828, "lin": 2829, "lind": 2830, "linding": 2831, "line": 2832, "linear": 2833, "lined": 2834, "lines": 2835, "ling": 2836, "linger": 2837, "lion": 2838, "lip": 2839, "lipos": 2840, "lis": 2841, "lish": 2842, "lished": 2843, "lispro": 2844, "list": 2845, "lister": 2846, "lit": 2847, "liter": 2848, "lith": 2849, "litis": 2850, "litol": 2851, "lium": 2852, "liv": 2853, "live": 2854, "livedo": 2855, "liver": 2856, "lives": 2857, "liz": 2858, "lo": 2859, "lob": 2860, "lobacter": 2861, "lobe": 2862, "lobectomy": 2863, "lobes": 2864, "loc": 2865, "local": 2866, "localiz": 2867, "localized": 2868, "locally": 2869, "locat": 2870, "located": 2871, "location": 2872, "locations": 2873, "locc": 2874, "loch": 2875, "lococc": 2876, "lococcal": 2877, "lod": 2878, "lodes": 2879, "lof": 2880, "lofem": 2881, "log": 2882, "lom": 2883, "loma": 2884, "loman": 2885, "lomas": 2886, "lomat": 2887, "lomatosis": 2888, "lomer": 2889, "lomus": 2890, "lomust": 2891, "lon": 2892, "lonor": 2893, "lop": 2894, "loper": 2895, "lophary": 2896, "loprost": 2897, "lor": 2898, "loro": 2899, "loromy": 2900, "loroth": 2901, "lorthalidone": 2902, "los": 2903, "lose": 2904, "loses": 2905, "losis": 2906, "lost": 2907, "lostoma": 2908, "lostr": 2909, "lot": 2910, "lothor": 2911, "loticase": 2912, "lous": 2913, "louse": 2914, "love": 2915, "low": 2916, "lowed": 2917, "lower": 2918, "lowered": 2919, "lowest": 2920, "lox": 2921, "lu": 2922, "lubr": 2923, "luct": 2924, "lue": 2925, "luen": 2926, "luent": 2927, "luenz": 2928, "lues": 2929, "lular": 2930, "lulis": 2931, "lulitis": 2932, "lum": 2933, "luma": 2934, "lumen": 2935, "lumer": 2936, "lumin": 2937, "luminal": 2938, "lun": 2939, "lung": 2940, "lup": 2941, "luphen": 2942, "lur": 2943, "lure": 2944, "lus": 2945, "lush": 2946, "lushed": 2947, "lusion": 2948, "luster": 2949, "lut": 2950, "lute": 2951, "luted": 2952, "lutein": 2953, "luten": 2954, "luticas": 2955, "ly": 2956, "lymph": 2957, "lymphaden": 2958, "lymphadenectomy": 2959, "lymphan": 2960, "lymphatic": 2961, "lymphedema": 2962, "m": 2963, "ma": 2964, "mac": 2965, "mace": 2966, "mach": 2967, "maco": 2968, "macolog": 2969, "macother": 2970, "macro": 2971, "macrocephaly": 2972, "macrocy": 2973, "macrog": 2974, "macrolide": 2975, "macrolides": 2976, "macrophage": 2977, "macrophages": 2978, "macroprolact": 2979, "macros": 2980, "macroves": 2981, "macy": 2982, "made": 2983, "mafen": 2984, "mag": 2985, "main": 2986, "mak": 2987, "making": 2988, "mal": 2989, "mala": 2990, "malab": 2991, "malad": 2992, "malar": 2993, "malate": 2994, "malath": 2995, "male": 2996, "males": 2997, "malic": 2998, "malign": 2999, "malinger": 3000, "malion": 3001, "maliz": 3002, "malized": 3003, "mall": 3004, "malle": 3005, "maller": 3006, "mallest": 3007, "malodorous": 3008, "malogen": 3009, "malon": 3010, "mam": 3011, "mama": 3012, "man": 3013, "management": 3014, "mancy": 3015, "mand": 3016, "mane": 3017, "manen": 3018, "manent": 3019, "mant": 3020, "mapheres": 3021, "maple": 3022, "mapp": 3023, "mar": 3024, "mare": 3025, "mares": 3026, "maro": 3027, "martomatous": 3028, "mary": 3029, "mas": 3030, "masome": 3031, "mass": 3032, "masses": 3033, "masseter": 3034, "mast": 3035, "mastication": 3036, "masticator": 3037, "masto": 3038, "mastocy": 3039, "mat": 3040, "mater": 3041, "mathematically": 3042, "matic": 3043, "mation": 3044, "mato": 3045, "matocele": 3046, "matocy": 3047, "matogen": 3048, "matogenes": 3049, "matolog": 3050, "matomal": 3051, "matome": 3052, "matomes": 3053, "matomy": 3054, "maton": 3055, "matophy": 3056, "matory": 3057, "matous": 3058, "matr": 3059, "may": 3060, "me": 3061, "mear": 3062, "mecaser": 3063, "mechan": 3064, "mechanism": 3065, "mechanoreceptor": 3066, "mecliz": 3067, "mecon": 3068, "mect": 3069, "med": 3070, "medical": 3071, "medically": 3072, "medication": 3073, "medications": 3074, "medrox": 3075, "mel": 3076, "melan": 3077, "melas": 3078, "melaton": 3079, "melen": 3080, "melox": 3081, "mem": 3082, "memant": 3083, "men": 3084, "menor": 3085, "ment": 3086, "menter": 3087, "mentioned": 3088, "mentos": 3089, "mentosum": 3090, "mep": 3091, "meper": 3092, "mer": 3093, "mero": 3094, "merocr": 3095, "mes": 3096, "mesen": 3097, "mesenter": 3098, "mestran": 3099, "met": 3100, "meten": 3101, "meter": 3102, "metered": 3103, "meterol": 3104, "meth": 3105, "methach": 3106, "methadone": 3107, "metham": 3108, "methan": 3109, "methane": 3110, "methem": 3111, "methen": 3112, "methy": 3113, "metoclopr": 3114, "metola": 3115, "metoprolol": 3116, "metr": 3117, "metron": 3118, "mex": 3119, "min": 3120, "minal": 3121, "mind": 3122, "mine": 3123, "miner": 3124, "ming": 3125, "minor": 3126, "mon": 3127, "mone": 3128, "monel": 3129, "monem": 3130, "mones": 3131, "monet": 3132, "monon": 3133, "most": 3134, "mus": 3135, "must": 3136, "my": 3137, "n": 3138, "name": 3139, "named": 3140, "names": 3141, "nametr": 3142, "ne": 3143, "near": 3144, "nec": 3145, "neces": 3146, "necolog": 3147, "necomast": 3148, "necroly": 3149, "necrophor": 3150, "necrosis": 3151, "necrot": 3152, "necrotic": 3153, "nect": 3154, "nection": 3155, "ned": 3156, "nein": 3157, "nel": 3158, "neling": 3159, "nem": 3160, "nemon": 3161, "neph": 3162, "ner": 3163, "nerel": 3164, "nerve": 3165, "nerves": 3166, "nes": 3167, "nesem": 3168, "nest": 3169, "nesy": 3170, "net": 3171, "netic": 3172, "networ": 3173, "nex": 3174, "ney": 3175, "non": 3176, "none": 3177, "nonep": 3178, "nor": 3179, "norep": 3180, "normal": 3181, "normalit": 3182, "normality": 3183, "normaliz": 3184, "normalized": 3185, "normally": 3186, "norovirus": 3187, "norther": 3188, "nortr": 3189, "o": 3190, "ob": 3191, "obacter": 3192, "ober": 3193, "obese": 3194, "obesity": 3195, "oblon": 3196, "oblot": 3197, "obr": 3198, "obron": 3199, "oc": 3200, "oca": 3201, "ocab": 3202, "ocaine": 3203, "ocal": 3204, "ocam": 3205, "ocand": 3206, "ocap": 3207, "ocar": 3208, "ocarcinoma": 3209, "ocarcinomas": 3210, "ocard": 3211, "ocation": 3212, "ocative": 3213, "occ": 3214, "occasion": 3215, "occer": 3216, "occlu": 3217, "occlus": 3218, "occlusion": 3219, "occur": 3220, "oce": 3221, "ocele": 3222, "ocent": 3223, "ocep": 3224, "ocer": 3225, "ocere": 3226, "och": 3227, "ochem": 3228, "ochor": 3229, "ocin": 3230, "ocine": 3231, "oclast": 3232, "ocle": 3233, "oclon": 3234, "ococc": 3235, "ococcal": 3236, "ococcem": 3237, "ocol": 3238, "ocolate": 3239, "ocolum": 3240, "ocom": 3241, "ocomp": 3242, "ocomprom": 3243, "ocon": 3244, "oconstr": 3245, "ocontrast": 3246, "ocor": 3247, "ocort": 3248, "ocortical": 3249, "ocorticotrop": 3250, "ocr": 3251, "oct": 3252, "octre": 3253, "ocy": 3254, "od": 3255, "ode": 3256, "odef": 3257, "odeficiency": 3258, "odel": 3259, "odeled": 3260, "odeling": 3261, "oden": 3262, "oder": 3263, "odes": 3264, "odif": 3265, "odo": 3266, "odomain": 3267, "odon": 3268, "odone": 3269, "odop": 3270, "odophor": 3271, "odor": 3272, "odos": 3273, "odosum": 3274, "odothy": 3275, "odox": 3276, "ody": 3277, "of": 3278, "ofe": 3279, "ofen": 3280, "ofet": 3281, "oform": 3282, "oforman": 3283, "ofr": 3284, "ofre": 3285, "ofun": 3286, "ofunction": 3287, "og": 3288, "ogen": 3289, "ogenem": 3290, "ogenes": 3291, "ogenetic": 3292, "ogent": 3293, "ogestrel": 3294, "ogr": 3295, "ogren": 3296, "ol": 3297, "ola": 3298, "olace": 3299, "olactone": 3300, "olal": 3301, "olalia": 3302, "olality": 3303, "olam": 3304, "olamine": 3305, "olamines": 3306, "olan": 3307, "olar": 3308, "olase": 3309, "olat": 3310, "olate": 3311, "olated": 3312, "olater": 3313, "olates": 3314, "olation": 3315, "ole": 3316, "olec": 3317, "olecal": 3318, "olecy": 3319, "oled": 3320, "oledoch": 3321, "oledochal": 3322, "olein": 3323, "olelith": 3324, "olely": 3325, "olem": 3326, "olen": 3327, "oler": 3328, "oles": 3329, "olest": 3330, "olesterol": 3331, "olesterolem": 3332, "oli": 3333, "oliative": 3334, "olic": 3335, "olid": 3336, "olifen": 3337, "oliform": 3338, "olig": 3339, "olim": 3340, "olin": 3341, "oline": 3342, "oliner": 3343, "olines": 3344, "olinester": 3345, "oling": 3346, "olip": 3347, "olism": 3348, "olist": 3349, "olistic": 3350, "olit": 3351, "olith": 3352, "olitis": 3353, "olium": 3354, "oliv": 3355, "olive": 3356, "oliz": 3357, "olized": 3358, "olo": 3359, "oloc": 3360, "olocr": 3361, "olog": 3362, "olol": 3363, "olon": 3364, "olone": 3365, "olones": 3366, "oloprosen": 3367, "olor": 3368, "olorect": 3369, "olos": 3370, "olosy": 3371, "olu": 3372, "olub": 3373, "olum": 3374, "olumab": 3375, "olume": 3376, "olumes": 3377, "olumetr": 3378, "olumin": 3379, "olun": 3380, "olus": 3381, "olute": 3382, "oluted": 3383, "olutes": 3384, "olution": 3385, "oly": 3386, "olym": 3387, "olymer": 3388, "olymy": 3389, "olyp": 3390, "olyposis": 3391, "olyprotein": 3392, "om": 3393, "oma": 3394, "omag": 3395, "omal": 3396, "omalac": 3397, "omalies": 3398, "omaliz": 3399, "omalous": 3400, "omaly": 3401, "oman": 3402, "omant": 3403, "omar": 3404, "omas": 3405, "omast": 3406, "omat": 3407, "omatic": 3408, "omatomed": 3409, "omatosen": 3410, "omatosis": 3411, "omatost": 3412, "omatotroph": 3413, "omatous": 3414, "omatrop": 3415, "ome": 3416, "omectomy": 3417, "omedical": 3418, "omedocarcinoma": 3419, "omelan": 3420, "omeles": 3421, "omen": 3422, "omenon": 3423, "oment": 3424, "omep": 3425, "omer": 3426, "omes": 3427, "omet": 3428, "ometr": 3429, "omin": 3430, "oming": 3431, "omon": 3432, "omy": 3433, "on": 3434, "one": 3435, "onecrosis": 3436, "onema": 3437, "onemal": 3438, "onent": 3439, "oneph": 3440, "oner": 3441, "ones": 3442, "onesel": 3443, "oney": 3444, "onon": 3445, "onor": 3446, "op": 3447, "opath": 3448, "opathy": 3449, "oper": 3450, "oph": 3451, "ophag": 3452, "ophage": 3453, "ophages": 3454, "ophalan": 3455, "ophary": 3456, "ophate": 3457, "ophen": 3458, "ophorectomy": 3459, "ophy": 3460, "oplak": 3461, "oplas": 3462, "oplast": 3463, "oplastic": 3464, "ople": 3465, "oplex": 3466, "oplik": 3467, "oplit": 3468, "opot": 3469, "opr": 3470, "oprec": 3471, "opres": 3472, "oprim": 3473, "oprist": 3474, "oprol": 3475, "oprolifer": 3476, "oprolol": 3477, "oprophy": 3478, "oprost": 3479, "oprosten": 3480, "oprostol": 3481, "oprostone": 3482, "oprot": 3483, "oprotein": 3484, "oproteinem": 3485, "oproteren": 3486, "or": 3487, "order": 3488, "ordered": 3489, "ore": 3490, "oreceptor": 3491, "ored": 3492, "oreg": 3493, "orelin": 3494, "ores": 3495, "orest": 3496, "orex": 3497, "oris": 3498, "oro": 3499, "oroc": 3500, "oromand": 3501, "oron": 3502, "orophary": 3503, "oros": 3504, "orosis": 3505, "oroth": 3506, "orotic": 3507, "orotr": 3508, "orotrache": 3509, "orous": 3510, "orovirus": 3511, "ort": 3512, "orter": 3513, "orth": 3514, "orthe": 3515, "orther": 3516, "ortic": 3517, "ortical": 3518, "orticop": 3519, "ortion": 3520, "orto": 3521, "ortoca": 3522, "ortogr": 3523, "orton": 3524, "ortosystem": 3525, "os": 3526, "ose": 3527, "osed": 3528, "osel": 3529, "oselect": 3530, "osemon": 3531, "osent": 3532, "osenthal": 3533, "oseph": 3534, "oser": 3535, "oserelin": 3536, "oses": 3537, "oside": 3538, "osider": 3539, "osides": 3540, "osis": 3541, "ositis": 3542, "ositive": 3543, "ositol": 3544, "osity": 3545, "osome": 3546, "osomes": 3547, "osor": 3548, "osp": 3549, "osper": 3550, "osph": 3551, "ospham": 3552, "osphat": 3553, "osphate": 3554, "osphatem": 3555, "osphates": 3556, "ospher": 3557, "osphere": 3558, "osphor": 3559, "ospot": 3560, "ost": 3561, "osten": 3562, "oster": 3563, "osterol": 3564, "ostic": 3565, "ostomy": 3566, "ostosis": 3567, "ostr": 3568, "osu": 3569, "osum": 3570, "osumab": 3571, "osup": 3572, "osus": 3573, "osy": 3574, "osyn": 3575, "ot": 3576, "oten": 3577, "oter": 3578, "oterol": 3579, "otestic": 3580, "oth": 3581, "othalam": 3582, "othed": 3583, "otheli": 3584, "other": 3585, "othor": 3586, "othy": 3587, "otic": 3588, "otice": 3589, "otices": 3590, "otion": 3591, "oto": 3592, "otochor": 3593, "otom": 3594, "otomy": 3595, "oton": 3596, "otone": 3597, "otoph": 3598, "otor": 3599, "otoreceptor": 3600, "otos": 3601, "otosen": 3602, "otother": 3603, "ototox": 3604, "otox": 3605, "otr": 3606, "otrache": 3607, "otrans": 3608, "otret": 3609, "otrex": 3610, "otrop": 3611, "otroph": 3612, "otyp": 3613, "otype": 3614, "otyped": 3615, "otypes": 3616, "otypically": 3617, "ould": 3618, "oun": 3619, "ound": 3620, "ounded": 3621, "ous": 3622, "ouse": 3623, "ousy": 3624, "out": 3625, "outer": 3626, "outermost": 3627, "outh": 3628, "outhe": 3629, "outher": 3630, "outw": 3631, "ov": 3632, "ove": 3633, "oved": 3634, "ovement": 3635, "oven": 3636, "ovent": 3637, "oventr": 3638, "over": 3639, "overex": 3640, "oves": 3641, "ovir": 3642, "ovirus": 3643, "oviruses": 3644, "ow": 3645, "owel": 3646, "owen": 3647, "ower": 3648, "own": 3649, "owney": 3650, "ox": 3651, "p": 3652, "pain": 3653, "painf": 3654, "part": 3655, "partic": 3656, "particle": 3657, "particles": 3658, "pat": 3659, "pated": 3660, "patel": 3661, "paten": 3662, "patent": 3663, "pater": 3664, "path": 3665, "pather": 3666, "pathetic": 3667, "pathy": 3668, "patient": 3669, "patients": 3670, "pation": 3671, "per": 3672, "peren": 3673, "perist": 3674, "peron": 3675, "perone": 3676, "perox": 3677, "ph": 3678, "pha": 3679, "phabet": 3680, "phag": 3681, "phage": 3682, "phages": 3683, "phal": 3684, "phalan": 3685, "phalo": 3686, "phalocele": 3687, "phan": 3688, "phantom": 3689, "phar": 3690, "phary": 3691, "phas": 3692, "phase": 3693, "phasematous": 3694, "phases": 3695, "phe": 3696, "phen": 3697, "phenel": 3698, "phentermine": 3699, "phentolamine": 3700, "pherocy": 3701, "phet": 3702, "phib": 3703, "phy": 3704, "pla": 3705, "place": 3706, "placed": 3707, "placement": 3708, "placent": 3709, "places": 3710, "placing": 3711, "plag": 3712, "plain": 3713, "plained": 3714, "plan": 3715, "plant": 3716, "plas": 3717, "plastic": 3718, "plastica": 3719, "plat": 3720, "plate": 3721, "plated": 3722, "platelet": 3723, "plates": 3724, "play": 3725, "ple": 3726, "pled": 3727, "plement": 3728, "pler": 3729, "ples": 3730, "plethor": 3731, "plex": 3732, "pli": 3733, "plicated": 3734, "plies": 3735, "plif": 3736, "pling": 3737, "plit": 3738, "plo": 3739, "plop": 3740, "plor": 3741, "plored": 3742, "plos": 3743, "plot": 3744, "plug": 3745, "plum": 3746, "plus": 3747, "ply": 3748, "pos": 3749, "pose": 3750, "posed": 3751, "poseles": 3752, "poses": 3753, "posit": 3754, "position": 3755, "positioned": 3756, "positive": 3757, "positively": 3758, "positives": 3759, "possible": 3760, "post": 3761, "poster": 3762, "posterolater": 3763, "posteromed": 3764, "posther": 3765, "postict": 3766, "postoper": 3767, "postrema": 3768, "postrenal": 3769, "posure": 3770, "posures": 3771, "pot": 3772, "poten": 3773, "potent": 3774, "potential": 3775, "potentially": 3776, "potentials": 3777, "pr": 3778, "pre": 3779, "prec": 3780, "preca": 3781, "precancerous": 3782, "preced": 3783, "precede": 3784, "preceded": 3785, "precedes": 3786, "precoc": 3787, "precon": 3788, "pred": 3789, "predispos": 3790, "predispose": 3791, "predisposed": 3792, "predisposes": 3793, "predisposition": 3794, "predomin": 3795, "preg": 3796, "pregn": 3797, "pregnen": 3798, "prel": 3799, "prelo": 3800, "prem": 3801, "premalign": 3802, "premat": 3803, "premen": 3804, "pren": 3805, "prep": 3806, "prepatel": 3807, "prepro": 3808, "preprocol": 3809, "prerenal": 3810, "pres": 3811, "presen": 3812, "presence": 3813, "present": 3814, "presents": 3815, "presep": 3816, "preser": 3817, "prest": 3818, "presum": 3819, "presumed": 3820, "presyn": 3821, "pret": 3822, "preterm": 3823, "pretest": 3824, "prim": 3825, "prima": 3826, "primar": 3827, "primary": 3828, "primer": 3829, "pris": 3830, "pro": 3831, "prob": 3832, "probe": 3833, "probenec": 3834, "proc": 3835, "procain": 3836, "procaine": 3837, "procal": 3838, "procar": 3839, "proce": 3840, "procedure": 3841, "procedures": 3842, "process": 3843, "processed": 3844, "processes": 3845, "processus": 3846, "proch": 3847, "proctocolectomy": 3848, "proctocolitis": 3849, "prod": 3850, "prodromal": 3851, "prodrome": 3852, "prodrug": 3853, "prof": 3854, "profes": 3855, "profun": 3856, "prog": 3857, "progen": 3858, "progest": 3859, "progesterone": 3860, "progr": 3861, "progres": 3862, "prolact": 3863, "prolap": 3864, "prolifer": 3865, "prolon": 3866, "prom": 3867, "proma": 3868, "prometha": 3869, "prominen": 3870, "prominent": 3871, "promy": 3872, "pron": 3873, "prone": 3874, "proneph": 3875, "prop": 3876, "proper": 3877, "prophase": 3878, "prophy": 3879, "proposed": 3880, "propr": 3881, "prosen": 3882, "prospect": 3883, "prost": 3884, "prosthetic": 3885, "prot": 3886, "protein": 3887, "proth": 3888, "proto": 3889, "protocol": 3890, "proton": 3891, "protop": 3892, "protr": 3893, "protract": 3894, "protraction": 3895, "prov": 3896, "proven": 3897, "prover": 3898, "prow": 3899, "prox": 3900, "ptom": 3901, "q": 3902, "qu": 3903, "que": 3904, "qued": 3905, "quela": 3906, "quen": 3907, "quent": 3908, "quer": 3909, "ques": 3910, "quester": 3911, "questered": 3912, "question": 3913, "questr": 3914, "questration": 3915, "quet": 3916, "r": 3917, "re": 3918, "rear": 3919, "rec": 3920, "recall": 3921, "recalling": 3922, "rece": 3923, "reced": 3924, "recent": 3925, "recep": 3926, "receptor": 3927, "reces": 3928, "reclass": 3929, "recluse": 3930, "reco": 3931, "recog": 3932, "recom": 3933, "recommen": 3934, "recommended": 3935, "reconst": 3936, "recor": 3937, "recover": 3938, "recovered": 3939, "recr": 3940, "recre": 3941, "rect": 3942, "rection": 3943, "recto": 3944, "rectocele": 3945, "rectos": 3946, "recy": 3947, "red": 3948, "redistr": 3949, "redomin": 3950, "reen": 3951, "reentrant": 3952, "reg": 3953, "regener": 3954, "regres": 3955, "rein": 3956, "reinf": 3957, "reinfor": 3958, "rela": 3959, "relap": 3960, "relate": 3961, "related": 3962, "relates": 3963, "relation": 3964, "relationship": 3965, "relative": 3966, "relatively": 3967, "relay": 3968, "rele": 3969, "relent": 3970, "reli": 3971, "relia": 3972, "reliab": 3973, "reliable": 3974, "relig": 3975, "relin": 3976, "rely": 3977, "rem": 3978, "remain": 3979, "remained": 3980, "remar": 3981, "remedy": 3982, "remem": 3983, "remy": 3984, "ren": 3985, "renal": 3986, "renally": 3987, "rent": 3988, "rep": 3989, "reper": 3990, "reph": 3991, "replace": 3992, "replaced": 3993, "replacement": 3994, "replacing": 3995, "replet": 3996, "replicate": 3997, "replicated": 3998, "replicates": 3999, "replication": 4000, "reposition": 4001, "repres": 4002, "represent": 4003, "represents": 4004, "reprod": 4005, "requ": 4006, "requen": 4007, "request": 4008, "res": 4009, "resear": 4010, "resect": 4011, "resection": 4012, "resem": 4013, "reser": 4014, "resh": 4015, "reside": 4016, "resident": 4017, "resor": 4018, "resort": 4019, "resp": 4020, "respect": 4021, "respon": 4022, "responsible": 4023, "rest": 4024, "resten": 4025, "restor": 4026, "restore": 4027, "restored": 4028, "restr": 4029, "restro": 4030, "result": 4031, "resus": 4032, "ret": 4033, "retention": 4034, "retic": 4035, "retr": 4036, "retract": 4037, "retraction": 4038, "retro": 4039, "retrob": 4040, "retrocecal": 4041, "retrog": 4042, "retrogr": 4043, "retroper": 4044, "retrophary": 4045, "retrospect": 4046, "retroster": 4047, "retrovir": 4048, "retroviruses": 4049, "ris": 4050, "rise": 4051, "risk": 4052, "risome": 4053, "risper": 4054, "rist": 4055, "ristocet": 4056, "risus": 4057, "ro": 4058, "rob": 4059, "robenec": 4060, "roc": 4061, "roca": 4062, "rocal": 4063, "rocele": 4064, "rochanter": 4065, "rocon": 4066, "rocy": 4067, "rod": 4068, "rody": 4069, "rof": 4070, "rog": 4071, "rogan": 4072, "rogen": 4073, "rogenes": 4074, "rogr": 4075, "rogres": 4076, "rol": 4077, "rolact": 4078, "rolate": 4079, "role": 4080, "roles": 4081, "rolidon": 4082, "rolith": 4083, "rom": 4084, "romaf": 4085, "roman": 4086, "romantic": 4087, "romas": 4088, "romat": 4089, "romatic": 4090, "romatoly": 4091, "romatosis": 4092, "rome": 4093, "romelal": 4094, "romy": 4095, "ron": 4096, "ronic": 4097, "rop": 4098, "ropath": 4099, "ropathy": 4100, "roperox": 4101, "roph": 4102, "ropher": 4103, "roplak": 4104, "ropr": 4105, "ror": 4106, "ros": 4107, "rose": 4108, "rosenthal": 4109, "roses": 4110, "roset": 4111, "rosis": 4112, "rost": 4113, "rostomy": 4114, "rostral": 4115, "rosu": 4116, "rot": 4117, "rotenone": 4118, "roth": 4119, "rotic": 4120, "rotomy": 4121, "rotox": 4122, "rotrop": 4123, "round": 4124, "rounded": 4125, "rous": 4126, "rout": 4127, "route": 4128, "routes": 4129, "rover": 4130, "row": 4131, "rowed": 4132, "rown": 4133, "rox": 4134, "s": 4135, "se": 4136, "sec": 4137, "secob": 4138, "second": 4139, "secret": 4140, "secretion": 4141, "secretor": 4142, "sect": 4143, "sectic": 4144, "section": 4145, "sed": 4146, "seen": 4147, "sel": 4148, "sela": 4149, "sele": 4150, "select": 4151, "selection": 4152, "selen": 4153, "seles": 4154, "seling": 4155, "sely": 4156, "sem": 4157, "sema": 4158, "sematous": 4159, "semen": 4160, "semin": 4161, "seminal": 4162, "sen": 4163, "sened": 4164, "senes": 4165, "sent": 4166, "senten": 4167, "senter": 4168, "sep": 4169, "ser": 4170, "serolog": 4171, "serone": 4172, "seros": 4173, "serositis": 4174, "seroton": 4175, "serotoner": 4176, "serotype": 4177, "serotypes": 4178, "serous": 4179, "ses": 4180, "sesh": 4181, "sesthes": 4182, "set": 4183, "setron": 4184, "sex": 4185, "sh": 4186, "sha": 4187, "shadow": 4188, "shaf": 4189, "shak": 4190, "shaking": 4191, "shallow": 4192, "shap": 4193, "shar": 4194, "share": 4195, "shared": 4196, "shares": 4197, "she": 4198, "shear": 4199, "shed": 4200, "sheen": 4201, "shel": 4202, "sher": 4203, "shor": 4204, "short": 4205, "shorten": 4206, "shortened": 4207, "shortest": 4208, "should": 4209, "shoulder": 4210, "show": 4211, "shown": 4212, "sible": 4213, "side": 4214, "sided": 4215, "siderob": 4216, "sideroph": 4217, "sides": 4218, "sign": 4219, "signet": 4220, "sion": 4221, "sit": 4222, "sitis": 4223, "sitive": 4224, "sity": 4225, "some": 4226, "somed": 4227, "somes": 4228, "somet": 4229, "someth": 4230, "sor": 4231, "sore": 4232, "sorenes": 4233, "sores": 4234, "sorter": 4235, "sp": 4236, "spart": 4237, "spat": 4238, "spec": 4239, "specif": 4240, "specific": 4241, "specifically": 4242, "specification": 4243, "spect": 4244, "spection": 4245, "spectr": 4246, "spectros": 4247, "sper": 4248, "sph": 4249, "sphag": 4250, "sphen": 4251, "spher": 4252, "spherocy": 4253, "sphor": 4254, "splan": 4255, "splas": 4256, "splash": 4257, "splastic": 4258, "splay": 4259, "spleen": 4260, "splen": 4261, "splenectomy": 4262, "splenorenal": 4263, "splice": 4264, "splicing": 4265, "splin": 4266, "splinter": 4267, "split": 4268, "splits": 4269, "sposition": 4270, "spot": 4271, "spr": 4272, "spre": 4273, "st": 4274, "stem": 4275, "sten": 4276, "stent": 4277, "step": 4278, "ster": 4279, "stere": 4280, "sterectomy": 4281, "steres": 4282, "stero": 4283, "sterogr": 4284, "steros": 4285, "sthy": 4286, "stic": 4287, "stica": 4288, "sticer": 4289, "sto": 4290, "stoc": 4291, "stole": 4292, "stolic": 4293, "stomach": 4294, "stomat": 4295, "ston": 4296, "stone": 4297, "stones": 4298, "stop": 4299, "stor": 4300, "store": 4301, "stored": 4302, "stores": 4303, "stos": 4304, "stostomy": 4305, "str": 4306, "stra": 4307, "strab": 4308, "strad": 4309, "strain": 4310, "stran": 4311, "strand": 4312, "stranded": 4313, "strat": 4314, "strate": 4315, "strated": 4316, "strates": 4317, "stray": 4318, "stre": 4319, "stren": 4320, "strep": 4321, "streptomy": 4322, "stres": 4323, "stret": 4324, "stro": 4325, "strocy": 4326, "strom": 4327, "stroma": 4328, "stromal": 4329, "stron": 4330, "stroph": 4331, "strophy": 4332, "struct": 4333, "struction": 4334, "su": 4335, "sub": 4336, "suben": 4337, "subep": 4338, "such": 4339, "suction": 4340, "suctioned": 4341, "sue": 4342, "sues": 4343, "sug": 4344, "suggest": 4345, "sul": 4346, "sular": 4347, "sulat": 4348, "sulated": 4349, "sule": 4350, "sules": 4351, "sulin": 4352, "sulitis": 4353, "sulos": 4354, "sult": 4355, "sum": 4356, "sumatr": 4357, "sun": 4358, "sup": 4359, "super": 4360, "superox": 4361, "supr": 4362, "sur": 4363, "sure": 4364, "sured": 4365, "sures": 4366, "sus": 4367, "susp": 4368, "suspect": 4369, "sust": 4370, "sut": 4371, "sy": 4372, "sym": 4373, "symptom": 4374, "symptomatic": 4375, "symptomatically": 4376, "symptomatolog": 4377, "symptoms": 4378, "syn": 4379, "syndrome": 4380, "syndromes": 4381, "synech": 4382, "syner": 4383, "syph": 4384, "system": 4385, "t": 4386, "ten": 4387, "tenect": 4388, "tened": 4389, "tener": 4390, "tent": 4391, "tention": 4392, "tentor": 4393, "ter": 4394, "tered": 4395, "terene": 4396, "terer": 4397, "teres": 4398, "terest": 4399, "term": 4400, "termin": 4401, "terminal": 4402, "terminale": 4403, "terminalis": 4404, "terminally": 4405, "terminals": 4406, "terms": 4407, "tero": 4408, "terob": 4409, "terobacter": 4410, "teroccoc": 4411, "terococc": 4412, "terod": 4413, "teropath": 4414, "terotox": 4415, "teroviruses": 4416, "test": 4417, "testic": 4418, "testicle": 4419, "testicles": 4420, "testosterone": 4421, "th": 4422, "thal": 4423, "thalam": 4424, "thalamus": 4425, "thalassem": 4426, "tham": 4427, "than": 4428, "thase": 4429, "that": 4430, "the": 4431, "theca": 4432, "thecoma": 4433, "their": 4434, "thelar": 4435, "them": 4436, "thema": 4437, "thematosus": 4438, "thematous": 4439, "then": 4440, "thened": 4441, "ther": 4442, "there": 4443, "thes": 4444, "these": 4445, "thesitis": 4446, "thest": 4447, "thet": 4448, "thetic": 4449, "they": 4450, "thigh": 4451, "this": 4452, "thor": 4453, "thoro": 4454, "thy": 4455, "tic": 4456, "tica": 4457, "ticagrelor": 4458, "tical": 4459, "tically": 4460, "ticar": 4461, "ticem": 4462, "ticlop": 4463, "tion": 4464, "to": 4465, "tob": 4466, "toc": 4467, "toch": 4468, "tocin": 4469, "tococc": 4470, "tococcal": 4471, "tocody": 4472, "tocoly": 4473, "tocy": 4474, "tod": 4475, "tog": 4476, "togen": 4477, "togenes": 4478, "together": 4479, "tol": 4480, "tolan": 4481, "toler": 4482, "toli": 4483, "toliz": 4484, "tolog": 4485, "toly": 4486, "tom": 4487, "toma": 4488, "tomas": 4489, "tome": 4490, "tometr": 4491, "ton": 4492, "tone": 4493, "tones": 4494, "top": 4495, "toph": 4496, "tophan": 4497, "tophy": 4498, "toplas": 4499, "toplast": 4500, "toposide": 4501, "topot": 4502, "topr": 4503, "toprot": 4504, "tor": 4505, "tort": 4506, "torticol": 4507, "tos": 4508, "tose": 4509, "tosed": 4510, "tosis": 4511, "tosp": 4512, "tostrep": 4513, "tot": 4514, "totic": 4515, "totox": 4516, "tover": 4517, "tow": 4518, "tox": 4519, "tr": 4520, "tra": 4521, "trabec": 4522, "trac": 4523, "traca": 4524, "trace": 4525, "tracellular": 4526, "tracellulare": 4527, "tracere": 4528, "traces": 4529, "trach": 4530, "trache": 4531, "tracing": 4532, "tracon": 4533, "tracor": 4534, "tracr": 4535, "tract": 4536, "traction": 4537, "tractor": 4538, "tracy": 4539, "trad": 4540, "trader": 4541, "traf": 4542, "trag": 4543, "train": 4544, "traline": 4545, "traluminal": 4546, "tram": 4547, "tramadol": 4548, "tramam": 4549, "tramed": 4550, "tramem": 4551, "tramus": 4552, "tran": 4553, "trans": 4554, "transect": 4555, "transection": 4556, "transep": 4557, "transes": 4558, "transit": 4559, "transition": 4560, "transp": 4561, "transplacent": 4562, "transplant": 4563, "transpos": 4564, "transposition": 4565, "transtentor": 4566, "transthy": 4567, "transu": 4568, "trap": 4569, "trapart": 4570, "traper": 4571, "traplacent": 4572, "traple": 4573, "trapp": 4574, "trarenal": 4575, "trast": 4576, "trat": 4577, "trate": 4578, "trates": 4579, "tratestic": 4580, "trathecal": 4581, "trathor": 4582, "tration": 4583, "trative": 4584, "tre": 4585, "treat": 4586, "treated": 4587, "treatment": 4588, "trem": 4589, "trematode": 4590, "trematodes": 4591, "treme": 4592, "tremely": 4593, "tremen": 4594, "tremes": 4595, "tren": 4596, "trep": 4597, "trex": 4598, "tris": 4599, "trismus": 4600, "tro": 4601, "trocar": 4602, "trocard": 4603, "troch": 4604, "trochanter": 4605, "trod": 4606, "trol": 4607, "trom": 4608, "tromethor": 4609, "tron": 4610, "trop": 4611, "troph": 4612, "trophy": 4613, "trose": 4614, "tumor": 4615, "tw": 4616, "twent": 4617, "two": 4618, "typ": 4619, "type": 4620, "types": 4621, "typh": 4622, "typical": 4623, "typically": 4624, "u": 4625, "ub": 4626, "ube": 4627, "ubel": 4628, "uber": 4629, "ubero": 4630, "uberous": 4631, "ubes": 4632, "ubr": 4633, "uct": 4634, "uction": 4635, "ucto": 4636, "uctor": 4637, "uctose": 4638, "uctosur": 4639, "ue": 4640, "ued": 4641, "uel": 4642, "uent": 4643, "uer": 4644, "ues": 4645, "uet": 4646, "ug": 4647, "uge": 4648, "uged": 4649, "ul": 4650, "ula": 4651, "ulab": 4652, "ulable": 4653, "ulaf": 4654, "ulan": 4655, "ulant": 4656, "ular": 4657, "ularem": 4658, "ularen": 4659, "ularis": 4660, "ulary": 4661, "ulas": 4662, "ulase": 4663, "ulat": 4664, "ulate": 4665, "ulated": 4666, "ulates": 4667, "ulation": 4668, "ulations": 4669, "ulative": 4670, "ulator": 4671, "ulatory": 4672, "ulder": 4673, "ule": 4674, "uled": 4675, "ulen": 4676, "ulent": 4677, "ules": 4678, "uli": 4679, "ulide": 4680, "ulif": 4681, "ulim": 4682, "ulin": 4683, "ulinem": 4684, "uling": 4685, "uliprist": 4686, "ulism": 4687, "ulit": 4688, "ulitis": 4689, "uliz": 4690, "ulized": 4691, "ulo": 4692, "uloc": 4693, "ulococh": 4694, "ulocy": 4695, "ulog": 4696, "ulom": 4697, "uloma": 4698, "ulomas": 4699, "ulomat": 4700, "ulomatosis": 4701, "ulomatous": 4702, "ulome": 4703, "ulon": 4704, "ulone": 4705, "uloneph": 4706, "ulop": 4707, "ulopathy": 4708, "uloplas": 4709, "uloplast": 4710, "ulos": 4711, "ulose": 4712, "ulosis": 4713, "ulostr": 4714, "ulosum": 4715, "ulosus": 4716, "ulot": 4717, "ulous": 4718, "ulov": 4719, "ulox": 4720, "ult": 4721, "ulth": 4722, "ulticomp": 4723, "ulticy": 4724, "ultoc": 4725, "ultr": 4726, "ultraf": 4727, "ultras": 4728, "ultrastruct": 4729, "ulum": 4730, "ulus": 4731, "um": 4732, "uma": 4733, "umab": 4734, "umacaf": 4735, "umad": 4736, "uman": 4737, "umar": 4738, "umat": 4739, "umatic": 4740, "umatica": 4741, "umato": 4742, "umatosis": 4743, "umen": 4744, "ument": 4745, "umer": 4746, "umerous": 4747, "umes": 4748, "umet": 4749, "umin": 4750, "uminem": 4751, "umon": 4752, "umor": 4753, "un": 4754, "under": 4755, "underex": 4756, "une": 4757, "unex": 4758, "unor": 4759, "unore": 4760, "up": 4761, "upation": 4762, "upations": 4763, "uper": 4764, "uperox": 4765, "uph": 4766, "uple": 4767, "upled": 4768, "uplex": 4769, "uplication": 4770, "upling": 4771, "uplo": 4772, "upr": 4773, "upreg": 4774, "uprenor": 4775, "uprist": 4776, "uprofen": 4777, "uprolide": 4778, "uprop": 4779, "ur": 4780, "ure": 4781, "ured": 4782, "urel": 4783, "urely": 4784, "urem": 4785, "ures": 4786, "uret": 4787, "ureter": 4788, "ureterop": 4789, "ureth": 4790, "uretic": 4791, "uris": 4792, "urish": 4793, "urished": 4794, "uro": 4795, "urob": 4796, "uroc": 4797, "urocard": 4798, "urocog": 4799, "urocy": 4800, "urode": 4801, "urody": 4802, "urof": 4803, "urog": 4804, "urogen": 4805, "urolep": 4806, "urolith": 4807, "urolog": 4808, "uroma": 4809, "uromas": 4810, "uromus": 4811, "uron": 4812, "urop": 4813, "uropath": 4814, "uropathy": 4815, "urophy": 4816, "uroprot": 4817, "urosem": 4818, "urosep": 4819, "urosis": 4820, "urosyph": 4821, "urothelial": 4822, "urothelium": 4823, "urotox": 4824, "urotrans": 4825, "urov": 4826, "urox": 4827, "us": 4828, "use": 4829, "used": 4830, "usely": 4831, "user": 4832, "userelin": 4833, "uses": 4834, "ush": 4835, "ushed": 4836, "usher": 4837, "using": 4838, "usion": 4839, "usitis": 4840, "usor": 4841, "usp": 4842, "ust": 4843, "ustic": 4844, "ustion": 4845, "ustody": 4846, "ustr": 4847, "ustration": 4848, "usu": 4849, "usul": 4850, "usumab": 4851, "ut": 4852, "ute": 4853, "uted": 4854, "uter": 4855, "utero": 4856, "uterol": 4857, "uteroplacent": 4858, "uteros": 4859, "uteroton": 4860, "uterov": 4861, "utes": 4862, "utetraben": 4863, "uth": 4864, "uthor": 4865, "uthy": 4866, "utic": 4867, "utical": 4868, "ution": 4869, "uto": 4870, "utocla": 4871, "utof": 4872, "utol": 4873, "utolol": 4874, "utom": 4875, "utomat": 4876, "utomatic": 4877, "uton": 4878, "utoph": 4879, "utor": 4880, "utoreg": 4881, "utos": 4882, "utosplenectomy": 4883, "utr": 4884, "utral": 4885, "utraliz": 4886, "utralized": 4887, "utrop": 4888, "utroph": 4889, "v": 4890, "ve": 4891, "vec": 4892, "vector": 4893, "ved": 4894, "vein": 4895, "vel": 4896, "velam": 4897, "velamer": 4898, "veled": 4899, "veler": 4900, "veli": 4901, "veling": 4902, "veloc": 4903, "velop": 4904, "velumab": 4905, "vem": 4906, "vement": 4907, "ven": 4908, "vene": 4909, "venere": 4910, "vent": 4911, "venth": 4912, "venthal": 4913, "vention": 4914, "ventr": 4915, "ventral": 4916, "ventromed": 4917, "ver": 4918, "vere": 4919, "vered": 4920, "verely": 4921, "verotox": 4922, "ves": 4923, "vest": 4924, "vet": 4925, "vir": 4926, "virenz": 4927, "viroc": 4928, "virolog": 4929, "viron": 4930, "virus": 4931, "viruses": 4932, "w": 4933, "we": 4934, "wear": 4935, "wed": 4936, "wel": 4937, "wen": 4938, "went": 4939, "wer": 4940, "were": 4941, "wester": 4942, "westerman": 4943, "wet": 4944, "wh": 4945, "what": 4946, "whe": 4947, "whel": 4948, "when": 4949, "whene": 4950, "where": 4951, "whether": 4952, "which": 4953, "who": 4954, "whole": 4955, "whom": 4956, "whor": 4957, "whose": 4958, "why": 4959, "with": 4960, "withered": 4961, "wor": 4962, "wort": 4963, "worth": 4964, "x": 4965, "y": 4966, "yp": 4967, "yper": 4968, "yperos": 4969, "yph": 4970, "yphen": 4971, "ypothalamus": 4972, "ypregnen": 4973, "yprogesterone": 4974, "z": 4975, "~": 4976, "\u00b0": 4977, "\u00b5": 4978, "\u00e7": 4979, "\u00e8": 4980, "\u00e9": 4981, "\u00f1": 4982, "\u00f6": 4983, "\u00fc": 4984, "\u0394": 4985, "\u03a8": 4986, "\u03b1": 4987, "\u03b2": 4988, "\u03b3": 4989, "\u03b4": 4990, "\u03b5": 4991, "\u03ba": 4992, "\u03bc": 4993, "\u03c0": 4994, "\u03c3": 4995, "\u2013": 4996, "\u2019": 4997, "\u2248": 4998, "\u2264": 4999, "\u2265": 5000, "\u2665": 5001}